unsigned char cosine_model_quantized_tflite[] = {
  0x18, 0x00, 0x00, 0x00, 0x54, 0x46, 0x4c, 0x33, 0x00, 0x00, 0x0e, 0x00,
  0x18, 0x00, 0x04, 0x00, 0x08, 0x00, 0x0c, 0x00, 0x10, 0x00, 0x14, 0x00,
  0x0e, 0x00, 0x00, 0x00, 0x03, 0x00, 0x00, 0x00, 0x10, 0x0a, 0x00, 0x00,
  0xb8, 0x05, 0x00, 0x00, 0xa0, 0x05, 0x00, 0x00, 0x04, 0x00, 0x00, 0x00,
  0x0b, 0x00, 0x00, 0x00, 0x90, 0x05, 0x00, 0x00, 0x7c, 0x05, 0x00, 0x00,
  0x24, 0x05, 0x00, 0x00, 0x1c, 0x05, 0x00, 0x00, 0x0c, 0x01, 0x00, 0x00,
  0x04, 0x01, 0x00, 0x00, 0xb4, 0x00, 0x00, 0x00, 0xac, 0x00, 0x00, 0x00,
  0x5c, 0x00, 0x00, 0x00, 0x0c, 0x00, 0x00, 0x00, 0x04, 0x00, 0x00, 0x00,
  0x54, 0xf6, 0xff, 0xff, 0xb6, 0xfa, 0xff, 0xff, 0x04, 0x00, 0x00, 0x00,
  0x40, 0x00, 0x00, 0x00, 0x9d, 0xa2, 0xfd, 0xbd, 0xa0, 0x39, 0x28, 0xbe,
  0xa0, 0xfe, 0x8a, 0xbd, 0xf0, 0x52, 0x2c, 0x3e, 0x6e, 0x8f, 0x00, 0xbe,
  0x62, 0xc2, 0xd5, 0x3d, 0x5a, 0x27, 0x42, 0xbe, 0x34, 0xa8, 0x5c, 0xbe,
  0x30, 0x2b, 0xdc, 0xbd, 0x26, 0xac, 0x49, 0xbe, 0x60, 0x6f, 0x41, 0xbd,
  0x39, 0xb4, 0xd5, 0xbe, 0x80, 0xb3, 0x67, 0xbc, 0x3d, 0xbf, 0x14, 0x3f,
  0xed, 0x57, 0xe2, 0xbe, 0x2b, 0x12, 0x9a, 0x3c, 0x02, 0xfb, 0xff, 0xff,
  0x04, 0x00, 0x00, 0x00, 0x40, 0x00, 0x00, 0x00, 0xea, 0x8c, 0x27, 0x3f,
  0x00, 0x00, 0x00, 0x00, 0xcd, 0x21, 0xc6, 0xba, 0x26, 0xb4, 0xb3, 0xbe,
  0x00, 0x00, 0x00, 0x00, 0x0d, 0xe8, 0xf4, 0xbc, 0x11, 0x47, 0x87, 0x3f,
  0x00, 0x00, 0x00, 0x00, 0x00, 0x00, 0x00, 0x00, 0x00, 0x00, 0x00, 0x00,
  0x00, 0x00, 0x00, 0x00, 0x00, 0x00, 0x00, 0x00, 0x00, 0x00, 0x00, 0x00,
  0xca, 0x02, 0xb9, 0xbe, 0x00, 0x00, 0x00, 0x00, 0xd5, 0x92, 0xf2, 0xbd,
  0xf0, 0xf6, 0xff, 0xff, 0x52, 0xfb, 0xff, 0xff, 0x04, 0x00, 0x00, 0x00,
  0x40, 0x00, 0x00, 0x00, 0x8b, 0x81, 0xc5, 0x3e, 0x65, 0xd5, 0x36, 0xbd,
  0x2e, 0x50, 0xc5, 0x3e, 0x02, 0x3b, 0x4f, 0xbb, 0xa1, 0x89, 0x4b, 0x3c,
  0x00, 0x00, 0x00, 0x00, 0xf3, 0x68, 0x20, 0xbd, 0xf0, 0xef, 0xaa, 0xbe,
  0xe1, 0x26, 0x4a, 0x3e, 0x00, 0x00, 0x00, 0x00, 0xa8, 0x06, 0x8f, 0xbe,
  0x7a, 0xc7, 0xb9, 0x3e, 0x49, 0x22, 0xe9, 0x3e, 0x89, 0x51, 0x95, 0xbd,
  0x64, 0x75, 0xb0, 0xbd, 0xdc, 0xff, 0x19, 0xbc, 0x40, 0xf7, 0xff, 0xff,
  0xa2, 0xfb, 0xff, 0xff, 0x04, 0x00, 0x00, 0x00, 0x00, 0x04, 0x00, 0x00,
  0x13, 0x93, 0x06, 0x3f, 0x0d, 0xea, 0xa4, 0x3e, 0x9b, 0x87, 0x41, 0x3c,
  0x9c, 0x3f, 0x51, 0xbe, 0xaa, 0x2e, 0x2c, 0xbe, 0xae, 0x28, 0xd4, 0x3e,
  0x7a, 0xe8, 0xbc, 0x3e, 0x44, 0xce, 0xe1, 0x3d, 0xa0, 0x49, 0xb1, 0xbd,
  0x66, 0xdf, 0x01, 0x3e, 0xca, 0x33, 0x14, 0xbe, 0x76, 0x31, 0x97, 0xbe,
  0xab, 0x7e, 0xd7, 0xbe, 0x1f, 0x4d, 0x63, 0x3e, 0xca, 0xce, 0x40, 0x3e,
  0x54, 0x57, 0x0e, 0x3e, 0x54, 0xea, 0xeb, 0xbd, 0x22, 0x92, 0x0a, 0x3e,
  0xc5, 0x3a, 0xcd, 0xbe, 0x29, 0x7d, 0x4d, 0xbe, 0xd0, 0xde, 0xed, 0xbc,
  0xea, 0x2a, 0x8a, 0xbc, 0x3c, 0x2c, 0xd8, 0x3d, 0xe0, 0x5c, 0x3a, 0xbc,
  0x20, 0x71, 0x84, 0xbe, 0x28, 0x3c, 0x83, 0x3d, 0x0d, 0xc4, 0x43, 0xbe,
  0x60, 0xd0, 0x1e, 0xbe, 0xc3, 0xe7, 0xae, 0x3e, 0x58, 0xae, 0x88, 0x3c,
  0xf8, 0xf8, 0x6c, 0xbe, 0x7f, 0xb9, 0x0e, 0xbd, 0x14, 0x74, 0x0f, 0x3f,
  0x4b, 0x77, 0x87, 0x3e, 0x54, 0x32, 0x91, 0xbe, 0x74, 0xb7, 0xc4, 0xbe,
  0x81, 0x45, 0xb9, 0x3e, 0xdd, 0x3b, 0x8c, 0xbe, 0xdb, 0xb2, 0x2c, 0x3f,
  0x9e, 0x03, 0x8a, 0xbe, 0xa7, 0xf2, 0xa9, 0xbe, 0x64, 0xe4, 0xeb, 0x3d,
  0x2e, 0x4a, 0x13, 0xbe, 0x24, 0x32, 0x10, 0xbe, 0xa4, 0x1a, 0xb6, 0xbd,
  0x3f, 0xe4, 0x07, 0xbf, 0xd8, 0x52, 0x97, 0xbe, 0x5b, 0x42, 0xa8, 0xbd,
  0x3c, 0xc5, 0x89, 0xbd, 0x93, 0x1f, 0x55, 0xbe, 0xde, 0x59, 0x7e, 0xbd,
  0xa4, 0x21, 0xc8, 0xbe, 0x84, 0xc9, 0x85, 0xbe, 0x14, 0x72, 0x12, 0x3e,
  0xa8, 0x5f, 0xc5, 0xbd, 0xd9, 0x80, 0xd7, 0xbe, 0x00, 0x6e, 0xa8, 0xbd,
  0x91, 0x91, 0xcc, 0x3e, 0xea, 0xdf, 0x75, 0x3e, 0x1b, 0xaa, 0xa1, 0x3e,
  0x3f, 0xb5, 0x87, 0x3e, 0x43, 0x72, 0xbc, 0xbe, 0xb0, 0xff, 0xcb, 0x3c,
  0x2c, 0x89, 0xb6, 0xbe, 0x04, 0xcf, 0x0a, 0xbf, 0x6f, 0x13, 0x71, 0xbe,
  0x34, 0xfb, 0x36, 0x3e, 0x1a, 0x94, 0x15, 0x3e, 0xb8, 0x3c, 0xa4, 0xbd,
  0xa1, 0x62, 0x7b, 0xbe, 0xc7, 0xfd, 0x9a, 0x3e, 0x62, 0xa2, 0x7e, 0x3e,
  0x45, 0x07, 0xd7, 0x3e, 0x9d, 0x73, 0x8b, 0x3e, 0x29, 0x7c, 0xc7, 0x3e,
  0x74, 0x76, 0xf9, 0x3d, 0x3c, 0xe7, 0x8d, 0x3d, 0xd0, 0x0b, 0x81, 0xbe,
  0x9a, 0x48, 0x14, 0x3e, 0x4a, 0x45, 0xb3, 0x3e, 0xa4, 0xf4, 0xbb, 0x3d,
  0xc9, 0x71, 0x42, 0xbe, 0xe0, 0x84, 0x3b, 0xbd, 0x6e, 0x4c, 0x8d, 0xbe,
  0x25, 0x34, 0x93, 0x3e, 0x50, 0x90, 0xa3, 0xbe, 0xe8, 0xd7, 0xba, 0xbe,
  0x24, 0xc0, 0xe0, 0x3d, 0x41, 0x96, 0xb5, 0xbe, 0xbb, 0x1c, 0x8a, 0xbe,
  0xcc, 0x04, 0xbb, 0x3d, 0x7c, 0xc5, 0xcb, 0x3d, 0x25, 0x74, 0x85, 0x3e,
  0x40, 0x94, 0x44, 0xbc, 0x08, 0x9b, 0x50, 0xbd, 0x8a, 0xe7, 0xc5, 0xbe,
  0xa5, 0xf0, 0x67, 0xbf, 0x34, 0x5c, 0x80, 0xbd, 0x7d, 0xb9, 0xc9, 0x3e,
  0x1a, 0x55, 0x0d, 0xbf, 0x44, 0x5c, 0xb2, 0x3d, 0x00, 0x4c, 0xd9, 0x3e,
  0xc3, 0x81, 0x9c, 0xbf, 0x49, 0x47, 0xb5, 0x3e, 0x68, 0x0c, 0x14, 0xbd,
  0x3b, 0xfa, 0xbe, 0xbe, 0x29, 0x77, 0xb8, 0xbe, 0x13, 0xac, 0x97, 0x3e,
  0x0a, 0xe0, 0x66, 0xbe, 0x3d, 0x9f, 0xae, 0x3e, 0xdd, 0xde, 0xbd, 0x3e,
  0x0e, 0x23, 0xd4, 0xbd, 0xbd, 0xd0, 0x81, 0xbd, 0xb6, 0xf3, 0x50, 0x3e,
  0x82, 0xbd, 0xae, 0x3e, 0x63, 0xf6, 0x9f, 0xbc, 0x07, 0xb0, 0xce, 0x3e,
  0xa3, 0xae, 0x6a, 0x3e, 0x71, 0xb4, 0x40, 0xbe, 0x32, 0x8f, 0x36, 0x3e,
  0x42, 0x21, 0x54, 0x3e, 0xdb, 0x7e, 0xbc, 0x3e, 0x1c, 0x23, 0x95, 0xbd,
  0x1b, 0x7e, 0x88, 0x3e, 0x80, 0xde, 0xae, 0xbb, 0xad, 0x88, 0x64, 0xbe,
  0x08, 0x2c, 0x48, 0xbd, 0xec, 0xef, 0xa2, 0xbe, 0x1a, 0x90, 0x62, 0xbe,
  0x00, 0x1a, 0x46, 0x3d, 0xf2, 0x6b, 0x26, 0x3e, 0x39, 0xcb, 0xa6, 0xbd,
  0xfe, 0xbf, 0x5d, 0x3e, 0xc2, 0x0b, 0x90, 0x3f, 0x52, 0x3f, 0x01, 0x3e,
  0x50, 0xe3, 0xb7, 0xbe, 0xa0, 0x44, 0x1d, 0xbc, 0xac, 0x0c, 0x9c, 0x3d,
  0xe2, 0x6e, 0x42, 0x3e, 0x4b, 0x19, 0xa1, 0xbe, 0x41, 0x7b, 0xa2, 0xbe,
  0xcd, 0x08, 0x9d, 0xbf, 0x5a, 0xe2, 0x09, 0x3e, 0x34, 0x92, 0xdb, 0x3e,
  0xbc, 0x95, 0xf3, 0x3d, 0xde, 0x7a, 0x13, 0xbe, 0x18, 0x86, 0x8c, 0xbd,
  0x40, 0x5a, 0xf0, 0x3b, 0x80, 0x26, 0x14, 0x3d, 0x3e, 0xc8, 0x71, 0xbe,
  0x1c, 0x43, 0x92, 0xbe, 0x40, 0xa5, 0x9f, 0x3c, 0x80, 0x62, 0x27, 0xbe,
  0x03, 0xd1, 0xa3, 0x3e, 0x9d, 0xdf, 0x9e, 0x3e, 0x8c, 0xac, 0xc9, 0x3d,
  0x62, 0xa8, 0x40, 0x3e, 0xd6, 0x34, 0x83, 0xbe, 0x23, 0xa5, 0xa2, 0x3e,
  0x7c, 0xae, 0xec, 0x3d, 0x2d, 0x42, 0xb9, 0xbd, 0xe8, 0xf1, 0xa3, 0xbe,
  0x6b, 0xa6, 0x0a, 0xbe, 0xaa, 0x1b, 0x79, 0x3e, 0x38, 0xcf, 0xb2, 0xbe,
  0xb2, 0x66, 0x43, 0xbd, 0x29, 0xe9, 0xc3, 0xbf, 0xd4, 0xb1, 0xae, 0x3d,
  0xdf, 0xf1, 0x98, 0x3e, 0x42, 0xfa, 0x8c, 0xbe, 0xbc, 0xc7, 0x22, 0xbe,
  0x31, 0x94, 0x92, 0x3e, 0x15, 0x2c, 0xa2, 0x3e, 0x11, 0x51, 0x10, 0x3f,
  0xfc, 0x74, 0x91, 0xbd, 0xa8, 0x5e, 0xa5, 0x3c, 0xd7, 0x6e, 0x0f, 0x3e,
  0x53, 0xd2, 0xb3, 0xbe, 0x2d, 0x82, 0x21, 0x3e, 0x0f, 0xab, 0xc7, 0x3e,
  0x30, 0x66, 0x5b, 0x3d, 0x29, 0xe6, 0x8c, 0xbf, 0x28, 0x77, 0xd1, 0x3e,
  0x99, 0x02, 0xa8, 0x3e, 0xbb, 0x99, 0xc7, 0xbe, 0xbe, 0x6b, 0x09, 0x3e,
  0x3c, 0x71, 0x97, 0xbe, 0x9f, 0x9d, 0xc1, 0x3e, 0xf9, 0x94, 0xd0, 0x3e,
  0x6e, 0x8c, 0x1d, 0xbf, 0x90, 0xa0, 0x86, 0x3d, 0x55, 0xcb, 0x33, 0xbf,
  0x57, 0x45, 0x1c, 0x3f, 0xa0, 0x26, 0x2c, 0xbd, 0x90, 0x0b, 0x2b, 0x3e,
  0x80, 0x1d, 0x3c, 0xbf, 0x5f, 0xa0, 0xba, 0x3e, 0xcc, 0x19, 0x2c, 0xbe,
  0x0f, 0xe9, 0x11, 0x3f, 0xb2, 0xd5, 0x12, 0xbe, 0xd8, 0x64, 0x9d, 0xbe,
  0x78, 0x42, 0xb3, 0xbe, 0x20, 0x5a, 0xcd, 0x3c, 0x77, 0x6b, 0x89, 0x3e,
  0x08, 0x0e, 0x64, 0x3d, 0xc6, 0x93, 0x46, 0xbf, 0x2d, 0xe3, 0x60, 0xbe,
  0x19, 0x20, 0x86, 0xbe, 0x2c, 0x79, 0x3a, 0xbf, 0x61, 0x0d, 0x66, 0xbe,
  0x90, 0xe1, 0x1e, 0x3e, 0xa8, 0x2b, 0x80, 0xbb, 0x88, 0x10, 0x60, 0x3d,
  0xc0, 0x40, 0xc3, 0x3e, 0x49, 0x58, 0xf2, 0xbf, 0xae, 0x03, 0x2d, 0xbe,
  0x75, 0x58, 0x8c, 0x3e, 0x84, 0x2e, 0xb2, 0xbe, 0x8c, 0xad, 0x91, 0x3d,
  0x00, 0xfd, 0x8c, 0xbe, 0xa3, 0x16, 0x98, 0x3e, 0x03, 0x66, 0x8b, 0x3e,
  0x0c, 0x1c, 0xb6, 0x3d, 0xc0, 0xf1, 0x4f, 0x3e, 0x1f, 0x55, 0x07, 0xbf,
  0x16, 0xf5, 0x0c, 0xbe, 0x9d, 0x92, 0x09, 0xbe, 0x33, 0x00, 0x2e, 0xbe,
  0xbb, 0x7f, 0xc1, 0xbe, 0x28, 0x37, 0x63, 0xbd, 0xc0, 0x57, 0x75, 0xbe,
  0x78, 0x8f, 0xda, 0xbd, 0x6e, 0xef, 0x0c, 0x3e, 0x84, 0x80, 0xcb, 0xbe,
  0xaf, 0x48, 0x83, 0x3e, 0x4a, 0x42, 0x58, 0x3e, 0x72, 0x18, 0x35, 0x3e,
  0x4b, 0x4f, 0x8e, 0x3d, 0x04, 0x56, 0xba, 0xbe, 0xcd, 0xd0, 0x31, 0xbe,
  0xce, 0x8c, 0xae, 0xbe, 0x87, 0xae, 0x96, 0x3e, 0x82, 0x72, 0x3a, 0x3e,
  0x71, 0x31, 0xa8, 0xbe, 0xf8, 0xe5, 0xef, 0xbd, 0x0d, 0xf6, 0x64, 0x3c,
  0x70, 0x4d, 0xa7, 0xbd, 0xc0, 0x95, 0xfd, 0xbd, 0x6a, 0x20, 0x0a, 0x3e,
  0x90, 0x8a, 0x28, 0x3d, 0x24, 0xbb, 0xd9, 0xbe, 0x10, 0x6f, 0x78, 0xbd,
  0x66, 0x85, 0x8d, 0xbe, 0x40, 0x48, 0x6b, 0xbe, 0xa8, 0xe2, 0xee, 0xbd,
  0x40, 0xbb, 0x9d, 0xbd, 0x50, 0xfb, 0xff, 0xff, 0xb2, 0xff, 0xff, 0xff,
  0x04, 0x00, 0x00, 0x00, 0x40, 0x00, 0x00, 0x00, 0x69, 0xf7, 0xd7, 0xbe,
  0xa6, 0x9b, 0x1d, 0xbb, 0x39, 0xa3, 0x0b, 0x3f, 0xf9, 0x59, 0x44, 0xbd,
  0x00, 0x9b, 0x46, 0x38, 0xfa, 0x64, 0x9e, 0xbe, 0x55, 0x23, 0xa9, 0x3e,
  0x17, 0xf2, 0x52, 0xba, 0x08, 0xc4, 0xc6, 0xbe, 0xf0, 0xd6, 0x1d, 0x3e,
  0x94, 0xae, 0x34, 0x3f, 0x45, 0x84, 0xf5, 0x3e, 0x4f, 0xd0, 0x1c, 0x3f,
  0xae, 0xb4, 0x03, 0x3f, 0x57, 0x7c, 0x09, 0x3b, 0xd0, 0x7b, 0xe0, 0xbd,
  0x00, 0x00, 0x06, 0x00, 0x08, 0x00, 0x04, 0x00, 0x06, 0x00, 0x00, 0x00,
  0x04, 0x00, 0x00, 0x00, 0x04, 0x00, 0x00, 0x00, 0xb3, 0x52, 0x07, 0xbf,
  0xb8, 0xfb, 0xff, 0xff, 0x0f, 0x00, 0x00, 0x00, 0x54, 0x4f, 0x43, 0x4f,
  0x20, 0x43, 0x6f, 0x6e, 0x76, 0x65, 0x72, 0x74, 0x65, 0x64, 0x2e, 0x00,
  0x01, 0x00, 0x00, 0x00, 0x10, 0x00, 0x00, 0x00, 0x0c, 0x00, 0x14, 0x00,
  0x04, 0x00, 0x08, 0x00, 0x0c, 0x00, 0x10, 0x00, 0x0c, 0x00, 0x00, 0x00,
  0xf0, 0x00, 0x00, 0x00, 0xe4, 0x00, 0x00, 0x00, 0xd8, 0x00, 0x00, 0x00,
  0x04, 0x00, 0x00, 0x00, 0x03, 0x00, 0x00, 0x00, 0x90, 0x00, 0x00, 0x00,
  0x48, 0x00, 0x00, 0x00, 0x04, 0x00, 0x00, 0x00, 0xce, 0xff, 0xff, 0xff,
  0x00, 0x00, 0x00, 0x08, 0x18, 0x00, 0x00, 0x00, 0x0c, 0x00, 0x00, 0x00,
  0x04, 0x00, 0x00, 0x00, 0x1c, 0xfc, 0xff, 0xff, 0x01, 0x00, 0x00, 0x00,
  0x00, 0x00, 0x00, 0x00, 0x03, 0x00, 0x00, 0x00, 0x07, 0x00, 0x00, 0x00,
  0x08, 0x00, 0x00, 0x00, 0x09, 0x00, 0x00, 0x00, 0x00, 0x00, 0x0e, 0x00,
  0x14, 0x00, 0x00, 0x00, 0x08, 0x00, 0x0c, 0x00, 0x07, 0x00, 0x10, 0x00,
  0x0e, 0x00, 0x00, 0x00, 0x00, 0x00, 0x00, 0x08, 0x1c, 0x00, 0x00, 0x00,
  0x10, 0x00, 0x00, 0x00, 0x04, 0x00, 0x00, 0x00, 0xba, 0xff, 0xff, 0xff,
  0x00, 0x00, 0x00, 0x01, 0x01, 0x00, 0x00, 0x00, 0x07, 0x00, 0x00, 0x00,
  0x03, 0x00, 0x00, 0x00, 0x04, 0x00, 0x00, 0x00, 0x05, 0x00, 0x00, 0x00,
  0x06, 0x00, 0x00, 0x00, 0x00, 0x00, 0x0e, 0x00, 0x16, 0x00, 0x00, 0x00,
  0x08, 0x00, 0x0c, 0x00, 0x07, 0x00, 0x10, 0x00, 0x0e, 0x00, 0x00, 0x00,
  0x00, 0x00, 0x00, 0x08, 0x24, 0x00, 0x00, 0x00, 0x18, 0x00, 0x00, 0x00,
  0x0c, 0x00, 0x00, 0x00, 0x00, 0x00, 0x06, 0x00, 0x08, 0x00, 0x07, 0x00,
  0x06, 0x00, 0x00, 0x00, 0x00, 0x00, 0x00, 0x01, 0x01, 0x00, 0x00, 0x00,
  0x04, 0x00, 0x00, 0x00, 0x03, 0x00, 0x00, 0x00, 0x01, 0x00, 0x00, 0x00,
  0x02, 0x00, 0x00, 0x00, 0x03, 0x00, 0x00, 0x00, 0x01, 0x00, 0x00, 0x00,
  0x00, 0x00, 0x00, 0x00, 0x01, 0x00, 0x00, 0x00, 0x01, 0x00, 0x00, 0x00,
  0x0a, 0x00, 0x00, 0x00, 0x10, 0x03, 0x00, 0x00, 0xa4, 0x02, 0x00, 0x00,
  0x40, 0x02, 0x00, 0x00, 0xf4, 0x01, 0x00, 0x00, 0xac, 0x01, 0x00, 0x00,
  0x48, 0x01, 0x00, 0x00, 0xfc, 0x00, 0x00, 0x00, 0xb4, 0x00, 0x00, 0x00,
  0x50, 0x00, 0x00, 0x00, 0x04, 0x00, 0x00, 0x00, 0x26, 0xfd, 0xff, 0xff,
  0x3c, 0x00, 0x00, 0x00, 0x01, 0x00, 0x00, 0x00, 0x0c, 0x00, 0x00, 0x00,
  0x04, 0x00, 0x00, 0x00, 0x18, 0xfd, 0xff, 0xff, 0x20, 0x00, 0x00, 0x00,
  0x73, 0x65, 0x71, 0x75, 0x65, 0x6e, 0x74, 0x69, 0x61, 0x6c, 0x5f, 0x32,
  0x2f, 0x64, 0x65, 0x6e, 0x73, 0x65, 0x5f, 0x36, 0x2f, 0x4d, 0x61, 0x74,
  0x4d, 0x75, 0x6c, 0x5f, 0x62, 0x69, 0x61, 0x73, 0x00, 0x00, 0x00, 0x00,
  0x01, 0x00, 0x00, 0x00, 0x01, 0x00, 0x00, 0x00, 0x6e, 0xfd, 0xff, 0xff,
  0x50, 0x00, 0x00, 0x00, 0x02, 0x00, 0x00, 0x00, 0x0c, 0x00, 0x00, 0x00,
  0x04, 0x00, 0x00, 0x00, 0x60, 0xfd, 0xff, 0xff, 0x34, 0x00, 0x00, 0x00,
  0x73, 0x65, 0x71, 0x75, 0x65, 0x6e, 0x74, 0x69, 0x61, 0x6c, 0x5f, 0x32,
  0x2f, 0x64, 0x65, 0x6e, 0x73, 0x65, 0x5f, 0x36, 0x2f, 0x4d, 0x61, 0x74,
  0x4d, 0x75, 0x6c, 0x2f, 0x52, 0x65, 0x61, 0x64, 0x56, 0x61, 0x72, 0x69,
  0x61, 0x62, 0x6c, 0x65, 0x4f, 0x70, 0x2f, 0x74, 0x72, 0x61, 0x6e, 0x73,
  0x70, 0x6f, 0x73, 0x65, 0x00, 0x00, 0x00, 0x00, 0x02, 0x00, 0x00, 0x00,
  0x01, 0x00, 0x00, 0x00, 0x10, 0x00, 0x00, 0x00, 0xce, 0xfd, 0xff, 0xff,
  0x34, 0x00, 0x00, 0x00, 0x07, 0x00, 0x00, 0x00, 0x0c, 0x00, 0x00, 0x00,
  0x04, 0x00, 0x00, 0x00, 0xc0, 0xfd, 0xff, 0xff, 0x19, 0x00, 0x00, 0x00,
  0x73, 0x65, 0x71, 0x75, 0x65, 0x6e, 0x74, 0x69, 0x61, 0x6c, 0x5f, 0x32,
  0x2f, 0x64, 0x65, 0x6e, 0x73, 0x65, 0x5f, 0x35, 0x2f, 0x52, 0x65, 0x6c,
  0x75, 0x00, 0x00, 0x00, 0x02, 0x00, 0x00, 0x00, 0x01, 0x00, 0x00, 0x00,
  0x10, 0x00, 0x00, 0x00, 0x12, 0xfe, 0xff, 0xff, 0x3c, 0x00, 0x00, 0x00,
  0x06, 0x00, 0x00, 0x00, 0x0c, 0x00, 0x00, 0x00, 0x04, 0x00, 0x00, 0x00,
  0x04, 0xfe, 0xff, 0xff, 0x20, 0x00, 0x00, 0x00, 0x73, 0x65, 0x71, 0x75,
  0x65, 0x6e, 0x74, 0x69, 0x61, 0x6c, 0x5f, 0x32, 0x2f, 0x64, 0x65, 0x6e,
  0x73, 0x65, 0x5f, 0x35, 0x2f, 0x4d, 0x61, 0x74, 0x4d, 0x75, 0x6c, 0x5f,
  0x62, 0x69, 0x61, 0x73, 0x00, 0x00, 0x00, 0x00, 0x01, 0x00, 0x00, 0x00,
  0x10, 0x00, 0x00, 0x00, 0x5a, 0xfe, 0xff, 0xff, 0x50, 0x00, 0x00, 0x00,
  0x04, 0x00, 0x00, 0x00, 0x0c, 0x00, 0x00, 0x00, 0x04, 0x00, 0x00, 0x00,
  0x4c, 0xfe, 0xff, 0xff, 0x34, 0x00, 0x00, 0x00, 0x73, 0x65, 0x71, 0x75,
  0x65, 0x6e, 0x74, 0x69, 0x61, 0x6c, 0x5f, 0x32, 0x2f, 0x64, 0x65, 0x6e,
  0x73, 0x65, 0x5f, 0x35, 0x2f, 0x4d, 0x61, 0x74, 0x4d, 0x75, 0x6c, 0x2f,
  0x52, 0x65, 0x61, 0x64, 0x56, 0x61, 0x72, 0x69, 0x61, 0x62, 0x6c, 0x65,
  0x4f, 0x70, 0x2f, 0x74, 0x72, 0x61, 0x6e, 0x73, 0x70, 0x6f, 0x73, 0x65,
  0x00, 0x00, 0x00, 0x00, 0x02, 0x00, 0x00, 0x00, 0x10, 0x00, 0x00, 0x00,
  0x10, 0x00, 0x00, 0x00, 0xba, 0xfe, 0xff, 0xff, 0x34, 0x00, 0x00, 0x00,
  0x0a, 0x00, 0x00, 0x00, 0x0c, 0x00, 0x00, 0x00, 0x04, 0x00, 0x00, 0x00,
  0xac, 0xfe, 0xff, 0xff, 0x19, 0x00, 0x00, 0x00, 0x73, 0x65, 0x71, 0x75,
  0x65, 0x6e, 0x74, 0x69, 0x61, 0x6c, 0x5f, 0x32, 0x2f, 0x64, 0x65, 0x6e,
  0x73, 0x65, 0x5f, 0x34, 0x2f, 0x52, 0x65, 0x6c, 0x75, 0x00, 0x00, 0x00,
  0x02, 0x00, 0x00, 0x00, 0x01, 0x00, 0x00, 0x00, 0x10, 0x00, 0x00, 0x00,
  0xfe, 0xfe, 0xff, 0xff, 0x3c, 0x00, 0x00, 0x00, 0x08, 0x00, 0x00, 0x00,
  0x0c, 0x00, 0x00, 0x00, 0x04, 0x00, 0x00, 0x00, 0xf0, 0xfe, 0xff, 0xff,
  0x20, 0x00, 0x00, 0x00, 0x73, 0x65, 0x71, 0x75, 0x65, 0x6e, 0x74, 0x69,
  0x61, 0x6c, 0x5f, 0x32, 0x2f, 0x64, 0x65, 0x6e, 0x73, 0x65, 0x5f, 0x34,
  0x2f, 0x4d, 0x61, 0x74, 0x4d, 0x75, 0x6c, 0x5f, 0x62, 0x69, 0x61, 0x73,
  0x00, 0x00, 0x00, 0x00, 0x01, 0x00, 0x00, 0x00, 0x10, 0x00, 0x00, 0x00,
  0x46, 0xff, 0xff, 0xff, 0x50, 0x00, 0x00, 0x00, 0x09, 0x00, 0x00, 0x00,
  0x0c, 0x00, 0x00, 0x00, 0x04, 0x00, 0x00, 0x00, 0x38, 0xff, 0xff, 0xff,
  0x34, 0x00, 0x00, 0x00, 0x73, 0x65, 0x71, 0x75, 0x65, 0x6e, 0x74, 0x69,
  0x61, 0x6c, 0x5f, 0x32, 0x2f, 0x64, 0x65, 0x6e, 0x73, 0x65, 0x5f, 0x34,
  0x2f, 0x4d, 0x61, 0x74, 0x4d, 0x75, 0x6c, 0x2f, 0x52, 0x65, 0x61, 0x64,
  0x56, 0x61, 0x72, 0x69, 0x61, 0x62, 0x6c, 0x65, 0x4f, 0x70, 0x2f, 0x74,
  0x72, 0x61, 0x6e, 0x73, 0x70, 0x6f, 0x73, 0x65, 0x00, 0x00, 0x00, 0x00,
  0x02, 0x00, 0x00, 0x00, 0x10, 0x00, 0x00, 0x00, 0x01, 0x00, 0x00, 0x00,
  0xa6, 0xff, 0xff, 0xff, 0x48, 0x00, 0x00, 0x00, 0x05, 0x00, 0x00, 0x00,
  0x2c, 0x00, 0x00, 0x00, 0x0c, 0x00, 0x00, 0x00, 0x08, 0x00, 0x0c, 0x00,
  0x04, 0x00, 0x08, 0x00, 0x08, 0x00, 0x00, 0x00, 0x10, 0x00, 0x00, 0x00,
  0x04, 0x00, 0x00, 0x00, 0x01, 0x00, 0x00, 0x00, 0x00, 0x00, 0x7f, 0x43,
  0x01, 0x00, 0x00, 0x00, 0x00, 0x00, 0x00, 0x00, 0x0d, 0x00, 0x00, 0x00,
  0x64, 0x65, 0x6e, 0x73, 0x65, 0x5f, 0x34, 0x5f, 0x69, 0x6e, 0x70, 0x75,
  0x74, 0x00, 0x00, 0x00, 0x02, 0x00, 0x00, 0x00, 0x01, 0x00, 0x00, 0x00,
  0x01, 0x00, 0x00, 0x00, 0x00, 0x00, 0x0e, 0x00, 0x14, 0x00, 0x04, 0x00,
  0x00, 0x00, 0x08, 0x00, 0x0c, 0x00, 0x10, 0x00, 0x0e, 0x00, 0x00, 0x00,
  0x28, 0x00, 0x00, 0x00, 0x03, 0x00, 0x00, 0x00, 0x10, 0x00, 0x00, 0x00,
  0x08, 0x00, 0x00, 0x00, 0x04, 0x00, 0x04, 0x00, 0x04, 0x00, 0x00, 0x00,
  0x08, 0x00, 0x00, 0x00, 0x49, 0x64, 0x65, 0x6e, 0x74, 0x69, 0x74, 0x79,
  0x00, 0x00, 0x00, 0x00, 0x02, 0x00, 0x00, 0x00, 0x01, 0x00, 0x00, 0x00,
  0x01, 0x00, 0x00, 0x00, 0x01, 0x00, 0x00, 0x00, 0x10, 0x00, 0x00, 0x00,
  0x00, 0x00, 0x0a, 0x00, 0x0c, 0x00, 0x07, 0x00, 0x00, 0x00, 0x08, 0x00,
  0x0a, 0x00, 0x00, 0x00, 0x00, 0x00, 0x00, 0x09, 0x03, 0x00, 0x00, 0x00
};
unsigned int cosine_model_quantized_tflite_len = 2640;
